unsigned char Vibration_Stat_Regr_model_tflite[] = {
  0x1c, 0x00, 0x00, 0x00, 0x54, 0x46, 0x4c, 0x33, 0x00, 0x00, 0x12, 0x00,
  0x1c, 0x00, 0x04, 0x00, 0x08, 0x00, 0x0c, 0x00, 0x10, 0x00, 0x14, 0x00,
  0x00, 0x00, 0x18, 0x00, 0x12, 0x00, 0x00, 0x00, 0x03, 0x00, 0x00, 0x00,
  0xa0, 0x11, 0x00, 0x00, 0x10, 0x00, 0x00, 0x00, 0x1c, 0x00, 0x00, 0x00,
  0x2c, 0x00, 0x00, 0x00, 0x0c, 0x00, 0x00, 0x00, 0x01, 0x00, 0x00, 0x00,
  0xe4, 0x00, 0x00, 0x00, 0x01, 0x00, 0x00, 0x00, 0xac, 0x00, 0x00, 0x00,
  0x0f, 0x00, 0x00, 0x00, 0x54, 0x4f, 0x43, 0x4f, 0x20, 0x43, 0x6f, 0x6e,
  0x76, 0x65, 0x72, 0x74, 0x65, 0x64, 0x2e, 0x00, 0x0d, 0x00, 0x00, 0x00,
  0x80, 0x00, 0x00, 0x00, 0x74, 0x00, 0x00, 0x00, 0x68, 0x00, 0x00, 0x00,
  0x5c, 0x00, 0x00, 0x00, 0x54, 0x00, 0x00, 0x00, 0x4c, 0x00, 0x00, 0x00,
  0x44, 0x00, 0x00, 0x00, 0x38, 0x00, 0x00, 0x00, 0x30, 0x00, 0x00, 0x00,
  0x24, 0x00, 0x00, 0x00, 0x18, 0x00, 0x00, 0x00, 0x10, 0x00, 0x00, 0x00,
  0x04, 0x00, 0x00, 0x00, 0x6a, 0xef, 0xff, 0xff, 0x4c, 0x00, 0x00, 0x00,
  0x30, 0xef, 0xff, 0xff, 0x76, 0xef, 0xff, 0xff, 0x78, 0x01, 0x00, 0x00,
  0x7e, 0xef, 0xff, 0xff, 0x3c, 0x03, 0x00, 0x00, 0x44, 0xef, 0xff, 0xff,
  0x8a, 0xef, 0xff, 0xff, 0x28, 0x04, 0x00, 0x00, 0x50, 0xef, 0xff, 0xff,
  0x54, 0xef, 0xff, 0xff, 0x58, 0xef, 0xff, 0xff, 0x9e, 0xef, 0xff, 0xff,
  0x44, 0x0e, 0x00, 0x00, 0xa6, 0xef, 0xff, 0xff, 0x00, 0x0f, 0x00, 0x00,
  0xae, 0xef, 0xff, 0xff, 0xb4, 0x0f, 0x00, 0x00, 0x74, 0xef, 0xff, 0xff,
  0x05, 0x00, 0x00, 0x00, 0x31, 0x2e, 0x35, 0x2e, 0x30, 0x00, 0x00, 0x00,
  0x94, 0xf2, 0xff, 0xff, 0x08, 0x00, 0x00, 0x00, 0x0c, 0x00, 0x00, 0x00,
  0x13, 0x00, 0x00, 0x00, 0x6d, 0x69, 0x6e, 0x5f, 0x72, 0x75, 0x6e, 0x74,
  0x69, 0x6d, 0x65, 0x5f, 0x76, 0x65, 0x72, 0x73, 0x69, 0x6f, 0x6e, 0x00,
  0x0c, 0x00, 0x14, 0x00, 0x04, 0x00, 0x08, 0x00, 0x0c, 0x00, 0x10, 0x00,
  0x0c, 0x00, 0x00, 0x00, 0x20, 0x00, 0x00, 0x00, 0x14, 0x00, 0x00, 0x00,
  0x08, 0x00, 0x00, 0x00, 0x68, 0x0f, 0x00, 0x00, 0x01, 0x00, 0x00, 0x00,
  0x00, 0x00, 0x00, 0x00, 0x01, 0x00, 0x00, 0x00, 0x01, 0x00, 0x00, 0x00,
  0x0b, 0x00, 0x00, 0x00, 0x04, 0x03, 0x00, 0x00, 0xdc, 0x0c, 0x00, 0x00,
  0x6c, 0x00, 0x00, 0x00, 0x74, 0x0d, 0x00, 0x00, 0x8c, 0x0c, 0x00, 0x00,
  0x24, 0x0d, 0x00, 0x00, 0x20, 0x03, 0x00, 0x00, 0x3c, 0x02, 0x00, 0x00,
  0x0c, 0x00, 0x00, 0x00, 0x08, 0x0e, 0x00, 0x00, 0xd8, 0x0e, 0x00, 0x00,
  0x3a, 0xf1, 0xff, 0xff, 0x10, 0x00, 0x00, 0x00, 0x0b, 0x00, 0x00, 0x00,
  0x14, 0x00, 0x00, 0x00, 0x34, 0x00, 0x00, 0x00, 0x02, 0x00, 0x00, 0x00,
  0x01, 0x00, 0x00, 0x00, 0x18, 0x00, 0x00, 0x00, 0x1d, 0x00, 0x00, 0x00,
  0x73, 0x65, 0x71, 0x75, 0x65, 0x6e, 0x74, 0x69, 0x61, 0x6c, 0x5f, 0x35,
  0x2f, 0x64, 0x65, 0x6e, 0x73, 0x65, 0x5f, 0x31, 0x36, 0x2f, 0x53, 0x6f,
  0x66, 0x74, 0x6d, 0x61, 0x78, 0x00, 0x00, 0x00, 0x4c, 0xf0, 0xff, 0xff,
  0x82, 0xf1, 0xff, 0xff, 0x10, 0x00, 0x00, 0x00, 0x0a, 0x00, 0x00, 0x00,
  0x14, 0x00, 0x00, 0x00, 0x4c, 0x00, 0x00, 0x00, 0x02, 0x00, 0x00, 0x00,
  0x18, 0x00, 0x00, 0x00, 0x04, 0x00, 0x00, 0x00, 0x35, 0x00, 0x00, 0x00,
  0x73, 0x65, 0x71, 0x75, 0x65, 0x6e, 0x74, 0x69, 0x61, 0x6c, 0x5f, 0x35,
  0x2f, 0x64, 0x65, 0x6e, 0x73, 0x65, 0x5f, 0x31, 0x35, 0x2f, 0x4d, 0x61,
  0x74, 0x4d, 0x75, 0x6c, 0x2f, 0x52, 0x65, 0x61, 0x64, 0x56, 0x61, 0x72,
  0x69, 0x61, 0x62, 0x6c, 0x65, 0x4f, 0x70, 0x2f, 0x74, 0x72, 0x61, 0x6e,
  0x73, 0x70, 0x6f, 0x73, 0x65, 0x00, 0x00, 0x00, 0xac, 0xf0, 0xff, 0xff,
  0x80, 0x01, 0x00, 0x00, 0xe4, 0x1e, 0x99, 0x3e, 0x84, 0x0f, 0xb9, 0xbe,
  0x68, 0x38, 0x4b, 0x3e, 0xd8, 0xb1, 0x3d, 0x3e, 0x60, 0x38, 0x6b, 0x3e,
  0xbb, 0x2c, 0xd6, 0xbd, 0xd7, 0x26, 0x77, 0x3e, 0xf9, 0x5b, 0xeb, 0xbd,
  0xe7, 0xeb, 0x14, 0xbe, 0x79, 0x4f, 0x26, 0x3e, 0xb4, 0xd7, 0x9d, 0xbe,
  0x68, 0xd4, 0xbb, 0xbe, 0xd4, 0x9e, 0xb0, 0xbe, 0xfa, 0x3a, 0xec, 0xbe,
  0x6e, 0x8c, 0xaa, 0x3e, 0x64, 0x6d, 0x04, 0x3e, 0xb8, 0x17, 0x7b, 0xbe,
  0x70, 0xc5, 0xb7, 0xbd, 0x9a, 0x6d, 0x0e, 0xbe, 0x20, 0x34, 0x12, 0x3d,
  0x53, 0xf9, 0xae, 0x3e, 0x0e, 0x30, 0x16, 0x3e, 0xbd, 0x6b, 0xe4, 0x3e,
  0x0a, 0xc1, 0xf5, 0x3d, 0x5b, 0xc1, 0x66, 0x3e, 0x88, 0x15, 0xdc, 0xbd,
  0xdd, 0x40, 0x08, 0x3f, 0x64, 0xa2, 0x0f, 0x3f, 0xb0, 0x91, 0xd6, 0x3d,
  0xff, 0x99, 0xb4, 0xbc, 0x6c, 0xba, 0xcc, 0xbe, 0x8b, 0x58, 0xb6, 0xbe,
  0x6c, 0xc8, 0xa2, 0x3e, 0x57, 0x7d, 0xad, 0xbe, 0x64, 0x8a, 0x0b, 0xbe,
  0x66, 0x80, 0xc2, 0x3e, 0x72, 0x40, 0x53, 0x3d, 0x32, 0x9c, 0x7c, 0x3d,
  0x0e, 0x89, 0x93, 0xbe, 0x68, 0x5a, 0xdc, 0xbe, 0xb1, 0xd7, 0x84, 0x3e,
  0xf8, 0x5c, 0x21, 0x3d, 0x44, 0x45, 0xbf, 0xbd, 0x40, 0x0f, 0xcd, 0xbe,
  0xe9, 0x6a, 0x20, 0x3e, 0xe8, 0x86, 0x2a, 0xbe, 0x2f, 0x8a, 0x62, 0x3e,
  0x01, 0xc2, 0x1e, 0x3c, 0x57, 0x2d, 0xca, 0xbe, 0x1b, 0x28, 0x72, 0x3e,
  0x2d, 0x8b, 0x1c, 0xbe, 0x44, 0xad, 0xcb, 0xbd, 0x5a, 0xa2, 0x6d, 0x3e,
  0x98, 0xd7, 0x7b, 0xbe, 0xe2, 0xe0, 0x05, 0xbe, 0xf4, 0xe1, 0xce, 0x3e,
  0x8a, 0x42, 0x9a, 0xbe, 0x9c, 0xdd, 0xa1, 0xbe, 0x5a, 0xff, 0x55, 0xbe,
  0xb8, 0x95, 0x8f, 0x3d, 0x46, 0x24, 0x8d, 0x3e, 0x09, 0xdd, 0xf4, 0x3d,
  0x25, 0xf5, 0x8d, 0xbe, 0x36, 0x20, 0xb6, 0xbd, 0x64, 0xe0, 0xc2, 0x3e,
  0x63, 0xc5, 0x40, 0xbe, 0x27, 0xd7, 0x78, 0xbd, 0x07, 0x23, 0x05, 0xbf,
  0xe6, 0xbb, 0x05, 0x3e, 0x16, 0xfb, 0x83, 0x3e, 0x37, 0x0d, 0x1d, 0x3f,
  0xaf, 0x15, 0xea, 0x3e, 0xb8, 0xfe, 0x0e, 0x3e, 0x1e, 0x73, 0x9a, 0xbe,
  0xea, 0x1d, 0x07, 0xbe, 0x74, 0x62, 0x1c, 0x3e, 0x24, 0x2a, 0x64, 0x3e,
  0xe4, 0x79, 0xba, 0xbe, 0x0a, 0x89, 0xb3, 0x3e, 0x40, 0x41, 0x6e, 0xbd,
  0x94, 0x89, 0x8c, 0xbd, 0x29, 0xc0, 0x57, 0x3d, 0xb5, 0x05, 0x76, 0x3e,
  0x74, 0x85, 0x2c, 0x3e, 0xba, 0x23, 0x05, 0x3e, 0x26, 0xda, 0x4d, 0x3e,
  0x1b, 0xcf, 0xb1, 0x3c, 0xda, 0x03, 0x0a, 0xbf, 0xdb, 0xad, 0xa5, 0xbe,
  0x8b, 0xff, 0x8d, 0x3e, 0x04, 0x9d, 0x41, 0xbe, 0x60, 0xbf, 0x55, 0x3e,
  0x9d, 0xb7, 0x06, 0x3d, 0x63, 0x15, 0xda, 0x3e, 0xe9, 0x9e, 0x1a, 0x3f,
  0x09, 0x26, 0x2e, 0xbe, 0x66, 0xf3, 0xff, 0xff, 0x10, 0x00, 0x00, 0x00,
  0x09, 0x00, 0x00, 0x00, 0x10, 0x00, 0x00, 0x00, 0x34, 0x00, 0x00, 0x00,
  0x01, 0x00, 0x00, 0x00, 0x18, 0x00, 0x00, 0x00, 0x21, 0x00, 0x00, 0x00,
  0x73, 0x65, 0x71, 0x75, 0x65, 0x6e, 0x74, 0x69, 0x61, 0x6c, 0x5f, 0x35,
  0x2f, 0x64, 0x65, 0x6e, 0x73, 0x65, 0x5f, 0x31, 0x36, 0x2f, 0x4d, 0x61,
  0x74, 0x4d, 0x75, 0x6c, 0x5f, 0x62, 0x69, 0x61, 0x73, 0x00, 0x00, 0x00,
  0x78, 0xf2, 0xff, 0xff, 0x60, 0x00, 0x00, 0x00, 0xd6, 0x8c, 0x02, 0xa7,
  0xf7, 0xa3, 0x45, 0xad, 0x1c, 0xd2, 0x4a, 0x3d, 0xbf, 0x06, 0xc2, 0xaf,
  0xed, 0xc3, 0x86, 0x3c, 0x11, 0x7a, 0x3f, 0xb9, 0xef, 0xc5, 0x16, 0xac,
  0x87, 0xb7, 0xe8, 0xbb, 0x7c, 0x77, 0xf3, 0xa0, 0x9b, 0x3b, 0x88, 0xa7,
  0x10, 0x71, 0xc8, 0xb6, 0x28, 0x83, 0x04, 0x31, 0xa9, 0x0f, 0x6c, 0xbc,
  0xf9, 0xbe, 0x42, 0xb9, 0x61, 0x55, 0x8b, 0xb1, 0x85, 0x1e, 0x50, 0xb1,
  0x7f, 0xb3, 0x81, 0xa5, 0xf8, 0xe2, 0xc7, 0x99, 0x9d, 0x0f, 0x9e, 0xba,
  0xf5, 0x7b, 0xa6, 0xae, 0xf5, 0x2d, 0x81, 0xb0, 0xfa, 0x10, 0xc5, 0xac,
  0x55, 0x51, 0x2c, 0xb9, 0x78, 0x06, 0xcd, 0xba, 0x12, 0xf4, 0xff, 0xff,
  0x10, 0x00, 0x00, 0x00, 0x08, 0x00, 0x00, 0x00, 0x14, 0x00, 0x00, 0x00,
  0x20, 0x00, 0x00, 0x00, 0x02, 0x00, 0x00, 0x00, 0x01, 0x00, 0x00, 0x00,
  0x01, 0x00, 0x00, 0x00, 0x08, 0x00, 0x00, 0x00, 0x49, 0x64, 0x65, 0x6e,
  0x74, 0x69, 0x74, 0x79, 0x00, 0x00, 0x00, 0x00, 0x10, 0xf3, 0xff, 0xff,
  0x46, 0xf4, 0xff, 0xff, 0x10, 0x00, 0x00, 0x00, 0x07, 0x00, 0x00, 0x00,
  0x14, 0x00, 0x00, 0x00, 0x4c, 0x00, 0x00, 0x00, 0x02, 0x00, 0x00, 0x00,
  0x18, 0x00, 0x00, 0x00, 0x18, 0x00, 0x00, 0x00, 0x35, 0x00, 0x00, 0x00,
  0x73, 0x65, 0x71, 0x75, 0x65, 0x6e, 0x74, 0x69, 0x61, 0x6c, 0x5f, 0x35,
  0x2f, 0x64, 0x65, 0x6e, 0x73, 0x65, 0x5f, 0x31, 0x36, 0x2f, 0x4d, 0x61,
  0x74, 0x4d, 0x75, 0x6c, 0x2f, 0x52, 0x65, 0x61, 0x64, 0x56, 0x61, 0x72,
  0x69, 0x61, 0x62, 0x6c, 0x65, 0x4f, 0x70, 0x2f, 0x74, 0x72, 0x61, 0x6e,
  0x73, 0x70, 0x6f, 0x73, 0x65, 0x00, 0x00, 0x00, 0x70, 0xf3, 0xff, 0xff,
  0x00, 0x09, 0x00, 0x00, 0x40, 0x87, 0xc4, 0x3b, 0x16, 0xf1, 0xff, 0xbd,
  0xb8, 0xa3, 0xf8, 0xbd, 0xb6, 0x48, 0x2a, 0x3e, 0xf7, 0x2f, 0x9f, 0x3e,
  0xb0, 0x28, 0x0e, 0xbe, 0x51, 0xc9, 0xac, 0xbe, 0x56, 0xcf, 0x6c, 0x3e,
  0xc0, 0x61, 0x04, 0xbe, 0x3c, 0xe0, 0xaf, 0xbd, 0xdc, 0xc9, 0xe3, 0xbd,
  0x53, 0x38, 0xb3, 0x3e, 0x5c, 0xc0, 0xae, 0xbe, 0x80, 0x5d, 0xb0, 0xbc,
  0x50, 0x58, 0x7f, 0xbd, 0xa8, 0x13, 0x54, 0xbd, 0x51, 0x50, 0x9d, 0xbe,
  0x46, 0x73, 0x21, 0x3e, 0xe6, 0xf2, 0x7a, 0x3e, 0xf6, 0x05, 0x28, 0x3e,
  0xbc, 0x31, 0x8e, 0xbe, 0x5a, 0xad, 0x17, 0x3e, 0x8a, 0x8a, 0x88, 0xbe,
  0xfe, 0x85, 0x92, 0xbe, 0xee, 0x46, 0x25, 0x3e, 0xb6, 0x66, 0x28, 0x3e,
  0x61, 0x5c, 0x11, 0xbe, 0xea, 0xb5, 0x05, 0x3e, 0x3b, 0xbd, 0xb4, 0x3e,
  0x80, 0xee, 0xfa, 0xbb, 0x88, 0x43, 0xea, 0x3d, 0xed, 0xbe, 0x55, 0xbe,
  0x80, 0x0a, 0xe0, 0xbc, 0x50, 0x44, 0x29, 0x3d, 0xa6, 0xad, 0x66, 0x3e,
  0xe2, 0x1b, 0x94, 0xbe, 0x9e, 0xff, 0x98, 0xbe, 0xe6, 0x4f, 0x04, 0x3e,
  0x36, 0xef, 0x21, 0x3e, 0x1f, 0xd6, 0x8f, 0xbe, 0x66, 0xd2, 0x82, 0xbe,
  0xc0, 0x55, 0x49, 0xbc, 0xcf, 0x32, 0xb0, 0x3e, 0x17, 0xb1, 0x5a, 0xbe,
  0xd6, 0x66, 0x6c, 0x3e, 0xc1, 0x90, 0x8c, 0x3e, 0x98, 0xa1, 0x34, 0x3d,
  0x32, 0x81, 0x9d, 0xbe, 0x48, 0x12, 0x12, 0x3e, 0x99, 0x35, 0xa5, 0x3e,
  0x9b, 0x19, 0x23, 0xbc, 0xab, 0xbf, 0x20, 0xbe, 0x40, 0x67, 0x86, 0xbe,
  0xca, 0x53, 0xad, 0x3e, 0x7f, 0xf5, 0x78, 0x3e, 0x03, 0xd2, 0x2c, 0xbe,
  0xaa, 0x7d, 0x2d, 0xbe, 0x83, 0xec, 0x4a, 0x3d, 0xb4, 0x8d, 0x3d, 0xbc,
  0x09, 0x6a, 0xad, 0x3e, 0x29, 0x29, 0x70, 0xbe, 0x6f, 0xed, 0x45, 0xbc,
  0x7f, 0x90, 0x34, 0xbe, 0x56, 0x76, 0x9e, 0x3e, 0x5d, 0x5d, 0xad, 0x3e,
  0x34, 0x1b, 0x2e, 0xbe, 0x78, 0xb7, 0xa7, 0xbe, 0x5b, 0x76, 0xaa, 0x3e,
  0xc4, 0x9e, 0x86, 0xbe, 0xf8, 0x26, 0x99, 0x3c, 0x7f, 0xae, 0x92, 0xbe,
  0x47, 0xad, 0x8c, 0x3d, 0x9e, 0xb7, 0x40, 0x3e, 0xde, 0xcc, 0x06, 0x3e,
  0x60, 0x6e, 0xbc, 0x3d, 0x00, 0xa0, 0xe8, 0x38, 0x1f, 0x58, 0xa7, 0x3e,
  0xeb, 0x35, 0x8f, 0xbe, 0x61, 0xd3, 0x5b, 0xbe, 0xf0, 0x9d, 0xb8, 0xbc,
  0x21, 0x89, 0x81, 0x3e, 0xe0, 0x39, 0x85, 0xbc, 0xd8, 0xaa, 0xc9, 0x3d,
  0xe0, 0x38, 0x57, 0xbe, 0x3c, 0x6b, 0x64, 0xbe, 0x74, 0x55, 0x84, 0xbe,
  0x57, 0x52, 0xb1, 0x3e, 0xc0, 0x44, 0xac, 0xbb, 0x68, 0x5d, 0x09, 0xbd,
  0x52, 0x98, 0x9f, 0xbe, 0x2c, 0xc4, 0xa8, 0x3d, 0xfa, 0xde, 0x70, 0x3e,
  0x72, 0xc7, 0x9e, 0xbe, 0x2f, 0x1e, 0x91, 0x3e, 0xe3, 0xea, 0x29, 0xbe,
  0xde, 0x92, 0x51, 0x3e, 0x42, 0x4d, 0x65, 0x3e, 0x9d, 0x3b, 0x65, 0x3e,
  0xac, 0x07, 0x19, 0x3e, 0xe8, 0x31, 0x7f, 0xbe, 0x0c, 0x54, 0xf9, 0x3d,
  0x05, 0x72, 0xa1, 0x3e, 0x16, 0x8a, 0x90, 0x3d, 0x92, 0x9f, 0x8a, 0xbe,
  0xf3, 0x23, 0xb1, 0x3e, 0xc9, 0xa0, 0x83, 0x3d, 0xe2, 0xc8, 0xc9, 0xbd,
  0x46, 0xcc, 0x95, 0xbe, 0xca, 0xc6, 0xbf, 0xbe, 0xaf, 0x4c, 0x96, 0xbe,
  0x68, 0x6c, 0xe9, 0x3d, 0x40, 0x8e, 0xa7, 0x3e, 0xc2, 0x07, 0x1c, 0xbe,
  0x00, 0x57, 0x6b, 0xbc, 0xf6, 0x4a, 0x05, 0xbe, 0x3a, 0x7d, 0x2d, 0x3e,
  0x48, 0x03, 0x53, 0xbe, 0xdd, 0x58, 0xa1, 0xbc, 0xb3, 0x5a, 0x55, 0x3d,
  0xcc, 0xbc, 0x7a, 0x3e, 0xeb, 0xf9, 0xb1, 0x3e, 0x95, 0x6a, 0x44, 0x3e,
  0x33, 0x9d, 0x4f, 0x3d, 0x0e, 0x66, 0x93, 0xbe, 0x82, 0x67, 0x39, 0x3e,
  0xbf, 0x82, 0xa9, 0x3e, 0x84, 0xf7, 0x05, 0xbd, 0x49, 0x53, 0xa9, 0x3e,
  0x60, 0xf1, 0xa7, 0xbd, 0xd2, 0x17, 0xf3, 0x3d, 0x85, 0x3f, 0x34, 0xbe,
  0x99, 0x1e, 0xb4, 0x3e, 0xf1, 0xde, 0x0e, 0xbe, 0xb9, 0x5e, 0x5c, 0xbe,
  0x1e, 0x32, 0x46, 0x3e, 0x80, 0x41, 0x87, 0xbe, 0x71, 0x90, 0x92, 0xbe,
  0x04, 0x4d, 0x09, 0xbe, 0xe7, 0x86, 0x28, 0xbe, 0xe3, 0x6b, 0x59, 0xbe,
  0x46, 0x94, 0xda, 0x3d, 0x65, 0x1e, 0x1c, 0xbe, 0x2f, 0x41, 0x54, 0x3b,
  0x96, 0x2c, 0x93, 0x3e, 0x45, 0x59, 0xa7, 0x3e, 0x9e, 0xda, 0x5d, 0xbe,
  0x10, 0x7e, 0xcf, 0x3c, 0x98, 0x99, 0x02, 0xbd, 0xeb, 0x91, 0xa4, 0x3e,
  0xc5, 0x1e, 0xa0, 0xbe, 0x1a, 0x6c, 0xf7, 0xbd, 0xa0, 0x12, 0x8a, 0x3d,
  0x26, 0x45, 0x27, 0xbe, 0xbe, 0xb9, 0x57, 0x3e, 0x62, 0x03, 0x38, 0x3e,
  0x8d, 0x89, 0x57, 0xbe, 0x87, 0xa5, 0xa3, 0x3e, 0x14, 0xaf, 0xeb, 0xbd,
  0x42, 0x87, 0x9b, 0xbe, 0xb0, 0xec, 0x51, 0xbe, 0x50, 0xfb, 0x24, 0xbd,
  0xc0, 0xb8, 0x51, 0xbd, 0xc5, 0x3f, 0x7d, 0xbe, 0xd4, 0x6c, 0x46, 0xbe,
  0x52, 0x16, 0xdf, 0xbd, 0x20, 0x43, 0x2a, 0x3d, 0x48, 0x2c, 0x3b, 0x3d,
  0x90, 0x65, 0x48, 0x3d, 0xd0, 0xf0, 0x99, 0x3c, 0xb3, 0xc8, 0xe8, 0x3d,
  0x62, 0xba, 0x99, 0x3e, 0x00, 0x64, 0x67, 0xbd, 0x15, 0x4e, 0x2e, 0xbe,
  0x72, 0xeb, 0x29, 0x3c, 0xdb, 0x6c, 0x84, 0x3e, 0x32, 0x2a, 0x3e, 0xbe,
  0x81, 0x30, 0x80, 0xbe, 0x07, 0x0c, 0x5b, 0xbd, 0x97, 0x62, 0xb9, 0x3c,
  0x05, 0x15, 0x8e, 0xbe, 0xfd, 0xb3, 0x93, 0x3d, 0x97, 0x7f, 0x3e, 0x3d,
  0xb1, 0xa3, 0x53, 0xbe, 0xf7, 0x33, 0x2f, 0x3e, 0x98, 0x1a, 0x59, 0xbe,
  0xf1, 0x2c, 0x44, 0xbe, 0x0c, 0xfb, 0xcb, 0x3d, 0xbc, 0xc1, 0x12, 0x3e,
  0x38, 0x7b, 0x88, 0x3e, 0x6c, 0xa6, 0x9b, 0x3e, 0x6e, 0x29, 0x2e, 0x3e,
  0x35, 0xcc, 0xb3, 0xbd, 0x38, 0x16, 0x05, 0x3e, 0x97, 0x59, 0x2f, 0xbe,
  0xc0, 0x77, 0x2b, 0xbc, 0x7e, 0x98, 0x16, 0x3e, 0xd7, 0x13, 0x9c, 0xbe,
  0xc8, 0x8c, 0xf8, 0xbd, 0x84, 0xc3, 0x8f, 0xbe, 0x87, 0x03, 0x8f, 0x3e,
  0xf8, 0x3c, 0x41, 0xbe, 0x1b, 0xf2, 0x2f, 0xbe, 0x67, 0xcf, 0x4a, 0xbe,
  0x00, 0x6b, 0x80, 0xbc, 0xa9, 0xa0, 0x95, 0xbe, 0xe4, 0xb4, 0x0e, 0x3e,
  0x80, 0xed, 0x80, 0xbb, 0x81, 0x1a, 0x40, 0xbe, 0x3b, 0xe2, 0xa2, 0xbe,
  0x89, 0x21, 0x80, 0xbe, 0x88, 0x00, 0x42, 0x3d, 0x10, 0x36, 0xca, 0x3c,
  0xe0, 0xca, 0xd2, 0xbc, 0x94, 0x5b, 0xef, 0x3d, 0xcc, 0x22, 0x84, 0xbe,
  0x20, 0x60, 0xba, 0xbd, 0x88, 0x22, 0xd8, 0xbd, 0x3e, 0x01, 0x6f, 0xbe,
  0x40, 0xb0, 0xf7, 0x3d, 0x80, 0x9d, 0xe1, 0xbd, 0xb5, 0x06, 0xb3, 0xbe,
  0xd4, 0x7d, 0x0d, 0x3e, 0x5f, 0x46, 0xb2, 0xbe, 0xe4, 0x57, 0xd1, 0x3d,
  0x50, 0xda, 0x56, 0x3d, 0x35, 0x34, 0x86, 0xbe, 0x86, 0x37, 0xac, 0xbe,
  0xe6, 0x9d, 0x3f, 0x3e, 0xe0, 0x19, 0x97, 0xbd, 0xae, 0xf7, 0xa1, 0xbe,
  0x28, 0x7c, 0xa4, 0x3d, 0x36, 0x74, 0x2c, 0xbe, 0xca, 0x8b, 0x12, 0x3e,
  0x78, 0x1a, 0xb0, 0x3d, 0x82, 0x1e, 0x3b, 0xbe, 0x10, 0x1d, 0x69, 0xbd,
  0x1f, 0xcb, 0x5a, 0xbe, 0x70, 0x2f, 0xc6, 0x3d, 0xa7, 0xfc, 0xb0, 0xbe,
  0x90, 0x10, 0x7a, 0xbe, 0x5d, 0x72, 0x33, 0xbe, 0x6d, 0x7e, 0x8c, 0x3e,
  0xea, 0x20, 0xa8, 0xbe, 0x20, 0x57, 0x23, 0xbd, 0x84, 0x7f, 0xab, 0xbd,
  0x88, 0x24, 0xee, 0x3c, 0xb6, 0xcb, 0x96, 0x3e, 0x2c, 0xdf, 0x65, 0xbe,
  0xf8, 0x5d, 0x6d, 0xbe, 0x1a, 0x16, 0xf3, 0xbd, 0x5d, 0x09, 0x8f, 0xbe,
  0x46, 0x26, 0x95, 0xbe, 0x44, 0x1e, 0xbc, 0x3c, 0xf8, 0x83, 0x6f, 0x3d,
  0xa1, 0xe2, 0xad, 0x3e, 0xfc, 0xa3, 0xb1, 0x3d, 0x91, 0x64, 0x28, 0xbd,
  0xd8, 0x0a, 0x30, 0x3c, 0xec, 0x55, 0xb8, 0x3d, 0x00, 0x0d, 0x91, 0xbc,
  0x7f, 0xce, 0x3f, 0xbe, 0x46, 0xd5, 0x91, 0x3e, 0x79, 0xdf, 0x7f, 0x3e,
  0x0c, 0x10, 0xfa, 0xbd, 0x34, 0xd0, 0xb0, 0xbd, 0x6f, 0x27, 0x85, 0x3e,
  0xe3, 0xa7, 0x6d, 0xbe, 0xc0, 0xef, 0x99, 0xbc, 0x86, 0x2a, 0x77, 0xbe,
  0x19, 0x45, 0x9a, 0x3e, 0xac, 0xdf, 0xe7, 0xbd, 0xcf, 0x45, 0xa4, 0x3e,
  0x3c, 0xff, 0x50, 0xbe, 0xfc, 0xf5, 0x83, 0x3d, 0x36, 0xf5, 0x91, 0xbe,
  0x2d, 0x73, 0x0a, 0xbe, 0x12, 0x86, 0x6e, 0x3e, 0xd8, 0x52, 0xf0, 0xbd,
  0x68, 0x3a, 0x36, 0x3d, 0xf4, 0x0e, 0xf2, 0x3d, 0x2a, 0xfa, 0x3e, 0x3e,
  0xd2, 0xe5, 0x44, 0xbe, 0xea, 0x3a, 0x64, 0x3e, 0x2a, 0x64, 0x52, 0x3e,
  0x90, 0x8f, 0x98, 0xbe, 0xe0, 0xc8, 0x93, 0x3c, 0xd0, 0x15, 0xa5, 0xbc,
  0x8a, 0xab, 0xf8, 0xbd, 0xb8, 0xea, 0x64, 0xbd, 0xd2, 0x8c, 0xd4, 0x3d,
  0x14, 0xaf, 0xcd, 0x3e, 0xb4, 0x77, 0x9f, 0xbe, 0xdf, 0x66, 0xa8, 0x3e,
  0xe2, 0x0a, 0xa0, 0x3d, 0xaa, 0xbd, 0x82, 0xbe, 0xe4, 0x4a, 0xb6, 0x3d,
  0xc2, 0x36, 0x28, 0x3e, 0xfc, 0xd3, 0x4d, 0x3e, 0xe2, 0xf8, 0x54, 0x3e,
  0x76, 0x6d, 0x92, 0xbd, 0x6e, 0xd5, 0xe1, 0x3e, 0x94, 0x62, 0xb2, 0x3d,
  0x37, 0xfd, 0x95, 0x3e, 0x1c, 0x2c, 0xab, 0x3e, 0xe6, 0xf0, 0x0c, 0x3e,
  0xf6, 0xe0, 0xf7, 0xbd, 0xa0, 0x35, 0x53, 0x3d, 0x43, 0xe4, 0x70, 0xbe,
  0xf6, 0xd9, 0x8a, 0xbe, 0x6b, 0x08, 0x8d, 0x3e, 0xa6, 0x29, 0x42, 0x3e,
  0xe8, 0x00, 0x31, 0x3e, 0x4e, 0xa3, 0x5d, 0x3e, 0xe5, 0xfc, 0x76, 0xbe,
  0x2d, 0xd8, 0x3a, 0x3d, 0x8f, 0x6b, 0x8d, 0x3e, 0xd8, 0x8f, 0x54, 0x3d,
  0xb8, 0xba, 0xa1, 0x3d, 0x42, 0xca, 0x3d, 0xbd, 0xee, 0xce, 0xb7, 0xbd,
  0xc6, 0x44, 0xef, 0xbd, 0x76, 0x3a, 0x42, 0x3e, 0xc7, 0x5d, 0x92, 0xbe,
  0x0b, 0xea, 0x19, 0xbe, 0xce, 0x0d, 0x97, 0xbe, 0xcb, 0x02, 0xaf, 0x3e,
  0x25, 0x02, 0xaa, 0x3e, 0x6a, 0xcd, 0xdb, 0xbd, 0xf5, 0x2f, 0x76, 0xbe,
  0x64, 0x5d, 0x87, 0x3b, 0xa8, 0x8f, 0x1e, 0xbd, 0x84, 0x96, 0x83, 0x3d,
  0xfd, 0x8f, 0x91, 0x3d, 0xe7, 0x96, 0xbd, 0xbd, 0x7c, 0xef, 0xf1, 0x3d,
  0xde, 0x42, 0x92, 0x3e, 0xb0, 0x67, 0xaa, 0x3c, 0x44, 0xbb, 0x88, 0xbe,
  0xfa, 0xca, 0x4c, 0x3e, 0x52, 0x12, 0x40, 0x3e, 0x16, 0x7b, 0x72, 0x3e,
  0x10, 0x36, 0x43, 0x3d, 0x08, 0x5e, 0xde, 0x3d, 0x06, 0xfa, 0x29, 0xbe,
  0x32, 0xfc, 0x21, 0x3e, 0x82, 0xb6, 0x61, 0x3e, 0x0e, 0x9f, 0xf4, 0xbd,
  0x8c, 0x1e, 0x6e, 0xbe, 0xc0, 0xb3, 0x29, 0x3d, 0xa8, 0xf7, 0xf1, 0x3d,
  0xe8, 0x8b, 0xc9, 0x3d, 0xf1, 0xe0, 0x9f, 0xbe, 0x00, 0x44, 0xe2, 0xbb,
  0x1a, 0xf8, 0x2a, 0x3e, 0xce, 0x2a, 0x0a, 0xbe, 0xa6, 0x3a, 0x34, 0x3e,
  0xb8, 0xf2, 0x65, 0xbd, 0x05, 0x8a, 0xb3, 0xbb, 0x79, 0x0d, 0x36, 0xbe,
  0x03, 0x50, 0x33, 0xbc, 0x3e, 0x27, 0x4a, 0x3e, 0x88, 0x30, 0x28, 0x3d,
  0x1c, 0x6b, 0x01, 0x3e, 0x41, 0xc7, 0x82, 0x3e, 0x6a, 0xf7, 0x9b, 0xbe,
  0x12, 0x30, 0x30, 0x3e, 0x88, 0xeb, 0x49, 0xbd, 0x66, 0x1d, 0x4c, 0xbe,
  0x20, 0x66, 0xbc, 0xbd, 0x72, 0x2d, 0x54, 0x3e, 0x40, 0x78, 0xd2, 0xbd,
  0x04, 0x5a, 0x0c, 0xbe, 0x28, 0x70, 0x62, 0x3d, 0x9c, 0xf4, 0xa3, 0xbe,
  0xc8, 0x31, 0x6c, 0xbe, 0x1a, 0xaf, 0x92, 0xbe, 0x68, 0x17, 0xce, 0x3d,
  0x77, 0x4e, 0x89, 0x3e, 0xde, 0xa8, 0x97, 0xbe, 0x28, 0x99, 0x8a, 0xbd,
  0x5c, 0xfe, 0x07, 0xbe, 0x44, 0x34, 0xd1, 0x3d, 0x2f, 0x00, 0x83, 0xbe,
  0xa6, 0x81, 0x7c, 0xbe, 0xa6, 0x96, 0x58, 0x3e, 0xc8, 0x4e, 0x4b, 0x3d,
  0x96, 0x9f, 0x95, 0xbe, 0x44, 0x4d, 0x82, 0xbe, 0x3b, 0x11, 0x84, 0x3e,
  0x84, 0x66, 0xfb, 0xbd, 0x1a, 0x64, 0x06, 0x3e, 0x8d, 0x93, 0x44, 0xbe,
  0x60, 0x57, 0x36, 0xbd, 0x20, 0x63, 0x5e, 0x3d, 0xaf, 0xb5, 0xae, 0xbe,
  0x50, 0x40, 0xde, 0xbc, 0x28, 0xa8, 0x88, 0xbd, 0x20, 0xfa, 0x58, 0x3c,
  0xd9, 0x8d, 0x9f, 0x3e, 0x12, 0x71, 0x13, 0x3e, 0xc9, 0xe5, 0xaf, 0xbe,
  0xa5, 0x18, 0x4d, 0xbe, 0x5e, 0x61, 0x62, 0x3e, 0xf4, 0xc0, 0x4a, 0xbe,
  0x40, 0x8c, 0xc5, 0xbc, 0x8d, 0x0e, 0x61, 0xbe, 0xde, 0xff, 0x7a, 0x3e,
  0x82, 0x24, 0xf7, 0xbd, 0x0c, 0x6c, 0x9b, 0xbe, 0x08, 0x0c, 0x42, 0xbd,
  0x30, 0x02, 0xce, 0xbd, 0x33, 0x0b, 0xb3, 0x3e, 0x07, 0xa2, 0xa0, 0x3e,
  0xd4, 0xf9, 0x79, 0xbe, 0x40, 0x66, 0x0a, 0x3e, 0x1f, 0x93, 0x42, 0xbe,
  0x02, 0xb5, 0x36, 0x3e, 0x1c, 0xe0, 0xda, 0xbd, 0x86, 0x2e, 0x2f, 0xbe,
  0x98, 0x5d, 0xcc, 0x3d, 0x38, 0x9a, 0x29, 0xbd, 0xc5, 0x23, 0xae, 0x3e,
  0x40, 0x4c, 0x88, 0xbe, 0xb1, 0x20, 0xb3, 0xbe, 0xb0, 0x9e, 0x7b, 0xbe,
  0x3e, 0xb0, 0x18, 0xbe, 0xc7, 0xad, 0x77, 0xbe, 0x28, 0x75, 0x87, 0xbe,
  0x60, 0x1d, 0xc0, 0xbc, 0x00, 0xfc, 0xc2, 0xbd, 0x00, 0x83, 0x4e, 0x3d,
  0x7a, 0x4a, 0x5d, 0xbe, 0xf0, 0x21, 0xa7, 0xbe, 0x5b, 0x3a, 0x2b, 0x3e,
  0x64, 0x0c, 0xa9, 0x3e, 0x1c, 0x5d, 0xe9, 0xbd, 0xf8, 0xb6, 0x21, 0x3d,
  0xde, 0x45, 0x9f, 0x3d, 0x4e, 0xe8, 0x93, 0xbe, 0x34, 0x97, 0x0f, 0xbe,
  0x8e, 0x39, 0x32, 0xbe, 0xdb, 0xa5, 0x95, 0xbe, 0x16, 0xd4, 0x81, 0xbd,
  0xe4, 0xfa, 0x4a, 0x3e, 0x8c, 0x8f, 0xf5, 0xbd, 0x00, 0x31, 0xa9, 0x3e,
  0x99, 0x3b, 0x80, 0x3e, 0x89, 0x25, 0x01, 0x3e, 0x2e, 0xfc, 0x9e, 0xbd,
  0xf3, 0x1c, 0xd9, 0xbd, 0x7b, 0x4a, 0x43, 0xbe, 0xe8, 0x6f, 0x6f, 0x3d,
  0x7e, 0x14, 0x2f, 0xbe, 0xfe, 0x45, 0xa7, 0x3e, 0xe7, 0xf9, 0x28, 0xbe,
  0x4b, 0x43, 0x37, 0x3d, 0x0e, 0x82, 0x61, 0x3e, 0x60, 0x45, 0x0e, 0x3d,
  0x43, 0xba, 0x12, 0xbe, 0x98, 0xa5, 0x5b, 0xbe, 0xcf, 0x61, 0xa5, 0x3e,
  0x9c, 0x8d, 0x09, 0xbe, 0xac, 0x65, 0xac, 0xbd, 0x16, 0x42, 0x1e, 0x3e,
  0x58, 0x75, 0x50, 0x3d, 0xc1, 0x28, 0x51, 0xbe, 0x74, 0xb0, 0x40, 0xbe,
  0x06, 0x7b, 0x44, 0x3e, 0x55, 0xe9, 0x8b, 0xbe, 0x88, 0x20, 0xca, 0x3d,
  0x88, 0x8e, 0x99, 0xbe, 0x18, 0xa9, 0xa3, 0xbd, 0xfa, 0x65, 0x5a, 0x3e,
  0x8a, 0xec, 0x2a, 0x3e, 0x6a, 0xaa, 0x2f, 0x3e, 0x43, 0x93, 0x4d, 0xbe,
  0x32, 0xcc, 0x89, 0xbe, 0x3e, 0x72, 0x80, 0xbe, 0x6a, 0xb2, 0x30, 0x3e,
  0x64, 0xd8, 0xae, 0x3d, 0xac, 0x3e, 0x56, 0xbe, 0x40, 0x90, 0x35, 0xbe,
  0xd4, 0xc0, 0x8e, 0xbd, 0x9c, 0x88, 0x9e, 0x3d, 0x6e, 0x4f, 0x97, 0xbe,
  0xe0, 0xb2, 0x1a, 0xbc, 0x17, 0x1b, 0x18, 0xbe, 0x3c, 0xee, 0x8d, 0xbd,
  0x06, 0x62, 0x0b, 0xbe, 0xf0, 0x35, 0x58, 0x3d, 0x20, 0xcb, 0x7e, 0x3c,
  0x4f, 0x05, 0x85, 0x3e, 0x00, 0x25, 0xca, 0xbb, 0x10, 0xaa, 0x55, 0xbd,
  0xcd, 0x1f, 0x92, 0x3e, 0xb8, 0xf7, 0x01, 0x3e, 0xec, 0x6e, 0x60, 0xbe,
  0x52, 0x07, 0x67, 0x3e, 0xf3, 0xd8, 0x99, 0x3e, 0x65, 0xe3, 0x19, 0xbe,
  0x7d, 0x3e, 0x31, 0xbe, 0x3f, 0x2d, 0x15, 0xbe, 0x50, 0x30, 0xc3, 0xbd,
  0xfe, 0xaf, 0x5d, 0xbe, 0x7b, 0x5e, 0x8c, 0xbe, 0xab, 0xa0, 0xae, 0x3e,
  0xde, 0xa2, 0xa6, 0xbe, 0x5e, 0x04, 0x58, 0x3e, 0x34, 0x9f, 0x92, 0xbe,
  0x5b, 0xf9, 0x2a, 0xbe, 0x54, 0x56, 0x21, 0xbe, 0xab, 0x6b, 0x85, 0x3e,
  0xf8, 0xf6, 0xb6, 0xbd, 0x56, 0x24, 0x44, 0x3e, 0xfc, 0xa4, 0x59, 0xbe,
  0x84, 0x4a, 0xad, 0xbd, 0x7c, 0x52, 0xfd, 0x3d, 0x40, 0xd0, 0xf7, 0x3d,
  0xa4, 0xec, 0xd9, 0x3d, 0xb8, 0x56, 0xad, 0xbe, 0x06, 0x00, 0x5a, 0x3e,
  0xc0, 0x2a, 0xf3, 0x3b, 0xa2, 0x55, 0x7b, 0x3e, 0x19, 0x51, 0x87, 0x3e,
  0x38, 0xd1, 0x83, 0x3d, 0x30, 0x31, 0x9f, 0xbc, 0x41, 0x04, 0xaa, 0x3e,
  0x4c, 0x83, 0xe9, 0x3d, 0xfe, 0x82, 0xa6, 0xbe, 0x64, 0x94, 0x52, 0xbe,
  0x25, 0xa3, 0x65, 0xbe, 0x14, 0x54, 0x10, 0x3e, 0x73, 0x6d, 0x2c, 0xbe,
  0xd1, 0x6e, 0x61, 0x3d, 0xde, 0x87, 0x7b, 0x3e, 0x51, 0x27, 0xae, 0x3e,
  0x36, 0x3d, 0xef, 0xbd, 0x41, 0xbe, 0x0a, 0x3c, 0x8b, 0xf4, 0x02, 0xbe,
  0xfc, 0x71, 0xdc, 0xbd, 0x71, 0x48, 0x9e, 0xbe, 0x2d, 0x40, 0x83, 0x3e,
  0xf3, 0x87, 0x94, 0xbe, 0x3f, 0x4b, 0x87, 0x3e, 0x72, 0x90, 0x98, 0xbd,
  0x48, 0x8b, 0xb2, 0xbd, 0x70, 0xc1, 0x09, 0x3d, 0x0f, 0xbe, 0x8d, 0x3e,
  0x16, 0xe9, 0x8a, 0x3e, 0x9b, 0x83, 0x94, 0x3e, 0xe7, 0x71, 0x2d, 0xbe,
  0x05, 0xdb, 0x07, 0xbe, 0xe1, 0xc0, 0x84, 0x3e, 0x29, 0x20, 0x14, 0x3e,
  0xda, 0x1d, 0xa9, 0xbe, 0x58, 0x12, 0x50, 0x3d, 0xc9, 0x4e, 0x48, 0xbe,
  0xde, 0x59, 0x78, 0x3e, 0x04, 0x48, 0xa2, 0x3e, 0x96, 0x51, 0x5d, 0x3d,
  0x9a, 0xbc, 0x1f, 0xbe, 0xdf, 0x01, 0x58, 0xbe, 0x35, 0xd9, 0x10, 0xbe,
  0x6d, 0x7a, 0xae, 0xbe, 0x5c, 0xbc, 0xf4, 0xbd, 0x20, 0x3d, 0x4d, 0xbe,
  0xb0, 0x12, 0x8d, 0xbd, 0x93, 0x13, 0x4e, 0xbe, 0x61, 0xd7, 0x74, 0xbe,
  0x7f, 0xcc, 0x4f, 0xbd, 0xa0, 0x63, 0x6d, 0x3c, 0x3d, 0x94, 0x86, 0x3e,
  0xbe, 0x18, 0x09, 0x3e, 0x89, 0x73, 0x7d, 0x3d, 0xbd, 0x66, 0xa1, 0x3e,
  0x37, 0x78, 0xb9, 0x3d, 0xaa, 0xfd, 0xff, 0xff, 0x10, 0x00, 0x00, 0x00,
  0x06, 0x00, 0x00, 0x00, 0x14, 0x00, 0x00, 0x00, 0x30, 0x00, 0x00, 0x00,
  0x02, 0x00, 0x00, 0x00, 0x01, 0x00, 0x00, 0x00, 0x18, 0x00, 0x00, 0x00,
  0x1a, 0x00, 0x00, 0x00, 0x73, 0x65, 0x71, 0x75, 0x65, 0x6e, 0x74, 0x69,
  0x61, 0x6c, 0x5f, 0x35, 0x2f, 0x64, 0x65, 0x6e, 0x73, 0x65, 0x5f, 0x31,
  0x35, 0x2f, 0x52, 0x65, 0x6c, 0x75, 0x00, 0x00, 0xb8, 0xfc, 0xff, 0xff,
  0xee, 0xfd, 0xff, 0xff, 0x10, 0x00, 0x00, 0x00, 0x05, 0x00, 0x00, 0x00,
  0x14, 0x00, 0x00, 0x00, 0x2c, 0x00, 0x00, 0x00, 0x02, 0x00, 0x00, 0x00,
  0x01, 0x00, 0x00, 0x00, 0x04, 0x00, 0x00, 0x00, 0x0e, 0x00, 0x00, 0x00,
  0x64, 0x65, 0x6e, 0x73, 0x65, 0x5f, 0x31, 0x35, 0x5f, 0x69, 0x6e, 0x70,
  0x75, 0x74, 0x00, 0x00, 0x08, 0x00, 0x0c, 0x00, 0x04, 0x00, 0x08, 0x00,
  0x08, 0x00, 0x00, 0x00, 0x10, 0x00, 0x00, 0x00, 0x04, 0x00, 0x00, 0x00,
  0x01, 0x00, 0x00, 0x00, 0x00, 0x00, 0x7f, 0x43, 0x01, 0x00, 0x00, 0x00,
  0x00, 0x00, 0x00, 0x00, 0x46, 0xfe, 0xff, 0xff, 0x10, 0x00, 0x00, 0x00,
  0x04, 0x00, 0x00, 0x00, 0x14, 0x00, 0x00, 0x00, 0x34, 0x00, 0x00, 0x00,
  0x02, 0x00, 0x00, 0x00, 0x01, 0x00, 0x00, 0x00, 0x18, 0x00, 0x00, 0x00,
  0x1d, 0x00, 0x00, 0x00, 0x73, 0x65, 0x71, 0x75, 0x65, 0x6e, 0x74, 0x69,
  0x61, 0x6c, 0x5f, 0x35, 0x2f, 0x64, 0x65, 0x6e, 0x73, 0x65, 0x5f, 0x31,
  0x36, 0x2f, 0x42, 0x69, 0x61, 0x73, 0x41, 0x64, 0x64, 0x00, 0x00, 0x00,
  0x58, 0xfd, 0xff, 0xff, 0x8e, 0xfe, 0xff, 0xff, 0x10, 0x00, 0x00, 0x00,
  0x03, 0x00, 0x00, 0x00, 0x10, 0x00, 0x00, 0x00, 0x34, 0x00, 0x00, 0x00,
  0x01, 0x00, 0x00, 0x00, 0x18, 0x00, 0x00, 0x00, 0x21, 0x00, 0x00, 0x00,
  0x73, 0x65, 0x71, 0x75, 0x65, 0x6e, 0x74, 0x69, 0x61, 0x6c, 0x5f, 0x35,
  0x2f, 0x64, 0x65, 0x6e, 0x73, 0x65, 0x5f, 0x31, 0x35, 0x2f, 0x4d, 0x61,
  0x74, 0x4d, 0x75, 0x6c, 0x5f, 0x62, 0x69, 0x61, 0x73, 0x00, 0x00, 0x00,
  0xa0, 0xfd, 0xff, 0xff, 0x60, 0x00, 0x00, 0x00, 0x00, 0x00, 0x00, 0x00,
  0xdb, 0xee, 0xaa, 0x3c, 0x24, 0xb0, 0x8b, 0x3b, 0x00, 0x00, 0x00, 0x00,
  0x00, 0x00, 0x00, 0x00, 0xa0, 0xd6, 0x41, 0x3c, 0xdb, 0xb7, 0xf4, 0x3c,
  0xeb, 0xf8, 0x15, 0xb9, 0x00, 0x00, 0x00, 0x00, 0x66, 0x5d, 0x9d, 0xbc,
  0x20, 0x24, 0x8b, 0xbc, 0x8b, 0xf5, 0x23, 0xbd, 0xc9, 0x63, 0x27, 0x3d,
  0xcd, 0x07, 0xba, 0xbb, 0x00, 0x00, 0x00, 0x00, 0xc8, 0x5b, 0xc6, 0xbd,
  0x63, 0xb0, 0x67, 0x3d, 0xff, 0x7e, 0x2e, 0x3c, 0x00, 0x00, 0x00, 0x00,
  0x00, 0x00, 0x00, 0x00, 0x13, 0xec, 0x57, 0xbc, 0xb1, 0x80, 0x88, 0xbc,
  0xa9, 0xd2, 0x39, 0xbc, 0x6a, 0x04, 0xf3, 0x3b, 0x3a, 0xff, 0xff, 0xff,
  0x10, 0x00, 0x00, 0x00, 0x02, 0x00, 0x00, 0x00, 0x14, 0x00, 0x00, 0x00,
  0x4c, 0x00, 0x00, 0x00, 0x02, 0x00, 0x00, 0x00, 0x01, 0x00, 0x00, 0x00,
  0x18, 0x00, 0x00, 0x00, 0x35, 0x00, 0x00, 0x00, 0x73, 0x65, 0x71, 0x75,
  0x65, 0x6e, 0x74, 0x69, 0x61, 0x6c, 0x5f, 0x35, 0x2f, 0x64, 0x65, 0x6e,
  0x73, 0x65, 0x5f, 0x31, 0x37, 0x2f, 0x4d, 0x61, 0x74, 0x4d, 0x75, 0x6c,
  0x2f, 0x52, 0x65, 0x61, 0x64, 0x56, 0x61, 0x72, 0x69, 0x61, 0x62, 0x6c,
  0x65, 0x4f, 0x70, 0x2f, 0x74, 0x72, 0x61, 0x6e, 0x73, 0x70, 0x6f, 0x73,
  0x65, 0x00, 0x00, 0x00, 0x64, 0xfe, 0xff, 0xff, 0x60, 0x00, 0x00, 0x00,
  0xb6, 0x9b, 0xb5, 0xbe, 0xe4, 0x01, 0x0f, 0xbe, 0x67, 0x45, 0xa4, 0x3e,
  0x2a, 0x3f, 0x1e, 0xbe, 0x4e, 0xd4, 0xaa, 0x3f, 0x01, 0x9f, 0xe5, 0x3e,
  0xe7, 0xcc, 0xdf, 0x3e, 0x18, 0x43, 0x28, 0x3e, 0xf1, 0x37, 0xd5, 0x3e,
  0x34, 0x08, 0xf4, 0x3d, 0x01, 0xce, 0x80, 0xbe, 0x7e, 0x10, 0xc3, 0xbe,
  0xf4, 0x86, 0x39, 0xbf, 0xe1, 0x89, 0x60, 0xbe, 0x91, 0xf4, 0xeb, 0x3e,
  0x73, 0x35, 0xec, 0x3e, 0xf4, 0x77, 0x0e, 0xbe, 0x69, 0x5d, 0x81, 0x3e,
  0x3d, 0xdb, 0xd8, 0x3e, 0xcc, 0x0a, 0xb9, 0xbd, 0x53, 0x09, 0xe3, 0x3e,
  0xcc, 0xfd, 0xfc, 0xbd, 0x0b, 0xc0, 0xe6, 0xbd, 0x6f, 0x49, 0x61, 0x3d,
  0x00, 0x00, 0x0e, 0x00, 0x14, 0x00, 0x04, 0x00, 0x00, 0x00, 0x08, 0x00,
  0x0c, 0x00, 0x10, 0x00, 0x0e, 0x00, 0x00, 0x00, 0x10, 0x00, 0x00, 0x00,
  0x01, 0x00, 0x00, 0x00, 0x10, 0x00, 0x00, 0x00, 0x34, 0x00, 0x00, 0x00,
  0x01, 0x00, 0x00, 0x00, 0x01, 0x00, 0x00, 0x00, 0x21, 0x00, 0x00, 0x00,
  0x73, 0x65, 0x71, 0x75, 0x65, 0x6e, 0x74, 0x69, 0x61, 0x6c, 0x5f, 0x35,
  0x2f, 0x64, 0x65, 0x6e, 0x73, 0x65, 0x5f, 0x31, 0x37, 0x2f, 0x4d, 0x61,
  0x74, 0x4d, 0x75, 0x6c, 0x5f, 0x62, 0x69, 0x61, 0x73, 0x00, 0x00, 0x00,
  0x20, 0xff, 0xff, 0xff, 0x04, 0x00, 0x00, 0x00, 0x62, 0x1c, 0x38, 0x3f,
  0x04, 0x00, 0x00, 0x00, 0xec, 0x00, 0x00, 0x00, 0x98, 0x00, 0x00, 0x00,
  0x54, 0x00, 0x00, 0x00, 0x04, 0x00, 0x00, 0x00, 0x38, 0xff, 0xff, 0xff,
  0x00, 0x00, 0x00, 0x08, 0x10, 0x00, 0x00, 0x00, 0x1c, 0x00, 0x00, 0x00,
  0x24, 0x00, 0x00, 0x00, 0x1c, 0x00, 0x00, 0x00, 0x03, 0x00, 0x00, 0x00,
  0x08, 0x00, 0x00, 0x00, 0x09, 0x00, 0x00, 0x00, 0x0a, 0x00, 0x00, 0x00,
  0x01, 0x00, 0x00, 0x00, 0x00, 0x00, 0x00, 0x00, 0x00, 0x00, 0x00, 0x00,
  0x74, 0xff, 0xff, 0xff, 0x14, 0x00, 0x1c, 0x00, 0x08, 0x00, 0x0c, 0x00,
  0x10, 0x00, 0x07, 0x00, 0x14, 0x00, 0x00, 0x00, 0x00, 0x00, 0x18, 0x00,
  0x14, 0x00, 0x00, 0x00, 0x00, 0x00, 0x00, 0x09, 0x01, 0x00, 0x00, 0x00,
  0x10, 0x00, 0x00, 0x00, 0x14, 0x00, 0x00, 0x00, 0x24, 0x00, 0x00, 0x00,
  0x14, 0x00, 0x00, 0x00, 0x01, 0x00, 0x00, 0x00, 0x05, 0x00, 0x00, 0x00,
  0x01, 0x00, 0x00, 0x00, 0x08, 0x00, 0x00, 0x00, 0x00, 0x00, 0x00, 0x00,
  0x00, 0x00, 0x06, 0x00, 0x08, 0x00, 0x04, 0x00, 0x06, 0x00, 0x00, 0x00,
  0x00, 0x00, 0x80, 0x3f, 0xc4, 0xff, 0xff, 0xff, 0x00, 0x00, 0x00, 0x08,
  0x10, 0x00, 0x00, 0x00, 0x1c, 0x00, 0x00, 0x00, 0x28, 0x00, 0x00, 0x00,
  0x1c, 0x00, 0x00, 0x00, 0x03, 0x00, 0x00, 0x00, 0x04, 0x00, 0x00, 0x00,
  0x06, 0x00, 0x00, 0x00, 0x07, 0x00, 0x00, 0x00, 0x01, 0x00, 0x00, 0x00,
  0x05, 0x00, 0x00, 0x00, 0x00, 0x00, 0x00, 0x00, 0x04, 0x00, 0x04, 0x00,
  0x04, 0x00, 0x00, 0x00, 0x14, 0x00, 0x18, 0x00, 0x00, 0x00, 0x08, 0x00,
  0x0c, 0x00, 0x07, 0x00, 0x10, 0x00, 0x00, 0x00, 0x00, 0x00, 0x14, 0x00,
  0x14, 0x00, 0x00, 0x00, 0x00, 0x00, 0x00, 0x08, 0x10, 0x00, 0x00, 0x00,
  0x1c, 0x00, 0x00, 0x00, 0x24, 0x00, 0x00, 0x00, 0x1c, 0x00, 0x00, 0x00,
  0x03, 0x00, 0x00, 0x00, 0x01, 0x00, 0x00, 0x00, 0x02, 0x00, 0x00, 0x00,
  0x03, 0x00, 0x00, 0x00, 0x01, 0x00, 0x00, 0x00, 0x04, 0x00, 0x00, 0x00,
  0x00, 0x00, 0x00, 0x00, 0xd2, 0xff, 0xff, 0xff, 0x00, 0x00, 0x00, 0x01,
  0x02, 0x00, 0x00, 0x00, 0x08, 0x00, 0x00, 0x00, 0x0c, 0x00, 0x00, 0x00,
  0xe6, 0xff, 0xff, 0xff, 0x00, 0x00, 0x00, 0x09, 0xfa, 0xff, 0xff, 0xff,
  0x00, 0x19, 0x06, 0x00, 0x06, 0x00, 0x05, 0x00, 0x06, 0x00, 0x00, 0x00,
  0x00, 0x09, 0x06, 0x00, 0x08, 0x00, 0x07, 0x00, 0x06, 0x00, 0x00, 0x00,
  0x00, 0x00, 0x00, 0x09
};
unsigned int Vibration_Stat_Regr_model_tflite_len = 4600;

